01
01
FE
03
03
02
FA
FD
FD
FC
FC
06
FE
FC
00
FC
02
00
FF
00
03
FE
FE
01
FA
00
05
00
05
FC
01
F9
FC
FC
FD
00
03
FD
FC
FA
FC
FE
FD
01
06
FF
01
00
FE
08
00
FC
FF
01
03
03
FD
01
05
F9
02
FE
06
FF
03
04
02
01
FF
FF
02
00
FE
FE
09
FF
FC
04
0A
F9
FF
06
FF
FF
05
05
04
00
02
03
00
04
00
FF
00
F8
04
00
05
03
FE
FE
FC
FE
FA
FF
FD
01
FC
FB
08
FA
FB
02
01
05
03
02
01
05
02
FE
05
FE
01
08
02
FA
F8
FF
FF
FA
03
FB
FE
00
02
03
03
05
02
00
FC
08
FF
FD
06
03
08
F8
02
04
02
03
01
FE
08
05
00
05
FB
FD
FC
FE
FE
01
04
FF
FE
00
FC
00
FE
FE
FF
FB
FF
FC
F7
08
04
02
02
05
FC
00
FE
FD
09
FD
00
03
FE
00
FD
FF
FD
FF
FE
FF
F9
FD
00
00
FF
FE
FE
F9
FC
FF
FA
FD
F9
FD
FB
FD
F7
FF
FB
FB
FD
FD
FD
FE
FF
FF
03
FD
FB
00
03
FF
FC
FC
02
04
FF
04
FE
07
FE
01
01
02
00
02
FF
09
00
03
FA
02
01
FE
02
FA
00
FE
03
FE
FC
01
FC
FB
00
F9
FF
01
01
02
01
0B
02
02
02
07
FC
07
00
00
FF
F9
FD
00
05
FF
FD
F4
01
01
03
05
04
06
06
06
06
05
07
07
07
06
06
03
03
02
01
02
01
FF
00
FF
00
00
FF
FF
00
01
01
01
04
02
FD
FC
00
03
FC
01
08
00
FD
01
00
FF
FD
FF
01
04
F9
03
06
FE
04
07
03
FA
03
02
01
02
04
0A
03
01
02
03
05
00
FD
01
09
05
FE
FC
01
FB
FF
00
FF
FF
FE
FA
01
01
FA
FA
00
F6
05
04
FE
FB
01
03
FF
FF
01
FA
00
00
04
01
02
00
FD
FC
F8
FF
F9
06
FE
F9
04
FC
FC
F8
FE
FD
02
FC
F9
FD
FF
02
FF
FE
05
02
01
FF
01
00
F9
01
FC
04
FB
07
00
01
FF
FC
00
FE
FA
FD
FC
06
06
05
01
03
02
FA
FD
FB
02
02
02
08
03
00
02
F8
01
05
F7
FD
FA
06
FC
00
FC
FF
FD
01
04
05
01
02
FE
FB
03
00
FD
05
FA
01
FF
FA
FD
FE
01
02
FE
FA
00
FB
00
FB
00
FF
FB
FC
FE
03
02
00
FF
FC
FC
04
FD
FC
FE
01
02
FF
F8
0A
04
FF
00
00
00
00
00
00
00
00
00
00
00
00
00
00
00
00
01
FB
01
FD
FE
01
FF
03
07
00
0A
00
F6
04
02
FE
FF
FB
09
06
FF
0B
FB
01
07
0D
F7
FF
FF
01
FD
F5
04
08
FE
F2
01
00
00
F8
FF
F9
F9
07
FA
FD
FE
FE
02
FF
FB
FC
FA
FE
FC
00
02
FB
FE
FC
01
08
08
FE
04
08
FD
F6
04
FC
04
01
F2
00
FD
FC
F8
FE
FA
FF
FC
FD
03
FB
03
FB
05
FB
FA
08
05
03
03
00
F3
FB
05
08
F7
01
02
F9
FF
01
FE
F9
01
04
FB
02
09
03
09
01
04
FF
03
FB
FC
F8
FA
FF
F6
01
F9
FC
0E
03
00
00
00
00
00
00
00
00
F4
F9
FA
FC
08
FF
06
F8
05
00
F5
FD
F8
09
06
10
10
0A
07
03
F9
EE
F3
0E
01
FD
03
FE
04
F4
EE
09
FD
F2
13
08
FE
F9
08
F9
FF
FE
03
EE
05
07
0A
07
05
F9
03
F9
00
02
F8
05
F2
01
FF
FA
06
08
F1
04
01
FF
07
ED
F8
F7
01
0A
FD
F2
05
F8
00
F7
07
05
0F
F3
0A
F9
FE
03
0E
06
FE
05
FC
FE
F6
FE
04
05
0D
FA
FD
09
F3
02
FD
03
F7
EB
FC
FE
05
FE
F9
F2
04
02
06
F8
FD
01
00
01
02
08
0C
00
F8
00
FE
FC
00
01
00
00
00
01
00
FF
00
00
00
01
00
00
00
00
F9
FB
FA
FC
FC
FE
09
09
F4
01
04
03
02
00
F6
00
0A
FB
FE
05
FB
01
01
09
FE
02
FE
04
FD
F8
F6
00
0A
02
FC
F8
03
01
FA
00
F4
01
FD
FD
04
FE
FA
06
08
00
FB
FE
F7
02
FF
00
00
03
00
FD
01
02
06
04
01
03
FE
FD
02
03
00
01
00
FF
04
04
00
03
01
01
08
02
08
00
01
06
F8
FE
06
08
01
01
08
FF
07
03
00
02
0A
02
FF
04
FF
02
07
FD
FC
0A
F2
09
03
FE
01
FC
FE
FA
09
06
FC
07
01
06
07
02
F8
06
06
02
FA
04
0B
04
FC
FF
05
04
FD
FC
09
FF
F9
FF
FC
06
02
04
00
00
0C
02
00
FF
03
00
03
F9
FE
04
06
08
00
00
0A
F5
FF
07
FE
FE
FD
FA
06
FB
FF
0B
04
09
F9
FD
00
F5
F9
05
FF
04
00
03
07
03
F8
0B
00
04
00
01
01
00
00
01
01
FF
06
08
06
FE
FA
F9
04
07
00
FD
02
FF
FA
05
03
01
FD
00
03
08
FB
FB
04
01
0A
FB
12
FF
FC
02
FA
02
05
FF
03
01
0E
08
FF
06
05
FF
05
00
02
04
FA
FC
04
FA
03
0A
0A
FA
FB
02
00
FB
FC
01
03
FF
06
02
FB
FF
FA
04
FE
F9
FB
04
01
FE
05
05
FC
FB
FE
00
06
F7
04
03
FE
FD
00
03
00
FF
FE
FA
06
FF
F8
F8
04
FB
F8
05
F9
02
03
03
FF
FB
FD
F9
07
F1
03
08
01
01
FC
00
F5
FF
FC
03
FA
FA
05
FA
08
00
03
FB
FC
07
07
09
FF
FC
FF
02
FF
08
00
02
03
EC
F7
F8
FB
10
05
F7
FA
FC
04
08
FC
FB
02
07
08
F7
01
FC
FD
FD
08
F7
00
FC
05
0A
F9
F4
00
FE
F5
02
04
FB
03
08
FE
FD
F7
FB
08
07
03
F3
02
F2
FE
00
02
FF
FB
01
F9
03
FC
0D
08
02
02
FE
02
F6
FB
F8
04
FD
02
FF
FF
04
01
02
FB
02
F6
FD
F5
FB
01
F9
F8
FC
F9
02
01
05
02
05
09
FF
FF
F8
04
FD
FD
01
02
FE
FF
00
00
02
02
FD
FD
04
06
01
FA
FE
FF
F8
FE
FD
01
01
06
07
F8
FF
05
FD
06
F1
F8
00
0B
0C
FD
01
0E
FE
FE
03
05
FC
FF
04
06
FF
00
FE
FF
FD
05
00
F8
F8
02
02
FB
F1
FE
02
00
03
00
06
02
FE
08
FF
08
F7
FA
07
03
F8
F6
00
FE
FF
FF
FF
FF
FF
01
01
01
01
01
01
00
00
00
00
FF
FF
FF
00
FF
00
00
00
FF
00
FF
FF
00
00
01
01
